const unsigned char motor_autoencoder_tflite[] = {28,0,0,0,84,70,76,51,20,0,32,0,28,0,24,0,20,0,16,0,12,0,0,0,8,0,4,0,20,0,0,0,28,0,0,0,148,0,0,0,236,0,0,0,20,3,0,0,36,3,0,0,188,6,0,0,3,0,0,0,1,0,0,0,16,0,0,0,0,0,10,0,16,0,12,0,8,0,4,0,10,0,0,0,12,0,0,0,28,0,0,0,60,0,0,0,15,0,0,0,115,101,114,118,105,110,103,95,100,101,102,97,117,108,116,0,1,0,0,0,4,0,0,0,148,255,255,255,6,0,0,0,4,0,0,0,8,0,0,0,111,117,116,112,117,116,95,48,0,0,0,0,1,0,0,0,4,0,0,0,250,253,255,255,4,0,0,0,11,0,0,0,105,110,112,117,116,95,108,97,121,101,114,0,2,0,0,0,52,0,0,0,4,0,0,0,220,255,255,255,9,0,0,0,4,0,0,0,19,0,0,0,67,79,78,86,69,82,83,73,79,78,95,77,69,84,65,68,65,84,65,0,8,0,12,0,8,0,4,0,8,0,0,0,8,0,0,0,4,0,0,0,19,0,0,0,109,105,110,95,114,117,110,116,105,109,101,95,118,101,114,115,105,111,110,0,10,0,0,0,36,2,0,0,28,2,0,0,140,1,0,0,84,1,0,0,52,1,0,0,164,0,0,0,156,0,0,0,148,0,0,0,116,0,0,0,4,0,0,0,154,254,255,255,4,0,0,0,96,0,0,0,16,0,0,0,0,0,0,0,8,0,14,0,8,0,4,0,8,0,0,0,16,0,0,0,36,0,0,0,0,0,6,0,8,0,4,0,6,0,0,0,4,0,0,0,0,0,0,0,12,0,24,0,20,0,16,0,12,0,4,0,12,0,0,0,76,241,46,22,85,135,184,250,2,0,0,0,2,0,0,0,4,0,0,0,6,0,0,0,50,46,49,57,46,48,0,0,6,255,255,255,4,0,0,0,16,0,0,0,49,46,53,46,48,0,0,0,0,0,0,0,0,0,0,0,16,251,255,255,20,251,255,255,42,255,255,255,4,0,0,0,128,0,0,0,1,223,109,190,55,10,16,63,255,130,115,191,78,130,10,63,13,227,65,62,206,40,146,61,104,214,255,62,53,227,254,189,191,159,156,61,189,199,162,62,28,141,187,190,14,102,4,191,0,178,140,62,96,67,92,63,99,212,46,63,49,132,104,62,174,227,230,189,193,250,125,62,243,91,44,191,142,17,202,62,70,122,68,62,170,51,66,62,232,78,38,190,82,121,19,62,229,196,247,190,31,186,9,188,212,98,122,189,225,52,42,191,193,237,50,63,100,134,134,59,114,71,50,62,130,51,199,190,182,255,255,255,4,0,0,0,16,0,0,0,237,223,132,62,98,239,210,61,116,231,187,61,33,247,126,189,210,255,255,255,4,0,0,0,32,0,0,0,252,164,119,62,88,96,178,190,66,137,164,188,178,7,16,189,123,127,177,190,78,126,72,190,57,222,84,190,180,34,14,190,0,0,6,0,8,0,4,0,6,0,0,0,4,0,0,0,128,0,0,0,180,98,254,189,180,173,1,190,170,15,26,63,135,164,28,191,83,32,4,63,94,129,186,190,109,153,247,61,208,79,45,63,47,155,138,190,115,201,114,61,70,57,78,190,237,62,73,62,18,202,109,62,240,38,79,191,3,54,218,62,78,213,116,62,171,169,147,62,27,96,176,188,176,102,190,62,215,142,206,62,201,245,51,191,232,206,25,63,176,248,23,63,199,148,56,62,90,124,136,62,243,183,235,62,230,37,31,191,188,184,116,190,126,13,194,190,47,57,21,63,230,168,252,62,130,227,37,191,128,252,255,255,132,252,255,255,15,0,0,0,77,76,73,82,32,67,111,110,118,101,114,116,101,100,46,0,1,0,0,0,20,0,0,0,0,0,14,0,24,0,20,0,16,0,12,0,8,0,4,0,14,0,0,0,20,0,0,0,28,0,0,0,160,0,0,0,164,0,0,0,168,0,0,0,4,0,0,0,109,97,105,110,0,0,0,0,2,0,0,0,72,0,0,0,4,0,0,0,206,255,255,255,16,0,0,0,0,0,0,8,12,0,0,0,16,0,0,0,248,252,255,255,1,0,0,0,6,0,0,0,3,0,0,0,5,0,0,0,1,0,0,0,2,0,0,0,0,0,14,0,22,0,0,0,16,0,12,0,11,0,4,0,14,0,0,0,24,0,0,0,0,0,0,8,24,0,0,0,28,0,0,0,0,0,6,0,8,0,7,0,6,0,0,0,0,0,0,1,1,0,0,0,5,0,0,0,3,0,0,0,0,0,0,0,4,0,0,0,3,0,0,0,1,0,0,0,6,0,0,0,1,0,0,0,0,0,0,0,7,0,0,0,100,2,0,0,12,2,0,0,152,1,0,0,64,1,0,0,244,0,0,0,96,0,0,0,4,0,0,0,206,253,255,255,0,0,0,1,20,0,0,0,28,0,0,0,28,0,0,0,7,0,0,0,52,0,0,0,2,0,0,0,255,255,255,255,8,0,0,0,184,253,255,255,27,0,0,0,83,116,97,116,101,102,117,108,80,97,114,116,105,116,105,111,110,101,100,67,97,108,108,95,49,58,48,0,2,0,0,0,1,0,0,0,8,0,0,0,38,254,255,255,0,0,0,1,20,0,0,0,28,0,0,0,28,0,0,0,6,0,0,0,108,0,0,0,2,0,0,0,255,255,255,255,4,0,0,0,16,254,255,255,82,0,0,0,102,117,110,99,116,105,111,110,97,108,95,49,47,100,101,110,115,101,95,49,47,77,97,116,77,117,108,59,102,117,110,99,116,105,111,110,97,108,95,49,47,100,101,110,115,101,95,49,47,82,101,108,117,59,102,117,110,99,116,105,111,110,97,108,95,49,47,100,101,110,115,101,95,49,47,66,105,97,115,65,100,100,0,0,2,0,0,0,1,0,0,0,4,0,0,0,10,255,255,255,0,0,0,1,16,0,0,0,16,0,0,0,5,0,0,0,40,0,0,0,144,254,255,255,27,0,0,0,102,117,110,99,116,105,111,110,97,108,95,49,47,100,101,110,115,101,95,49,47,77,97,116,77,117,108,0,2,0,0,0,4,0,0,0,8,0,0,0,82,255,255,255,0,0,0,1,16,0,0,0,16,0,0,0,4,0,0,0,56,0,0,0,216,254,255,255,43,0,0,0,102,117,110,99,116,105,111,110,97,108,95,49,47,100,101,110,115,101,95,49,47,66,105,97,115,65,100,100,47,82,101,97,100,86,97,114,105,97,98,108,101,79,112,0,1,0,0,0,4,0,0,0,166,255,255,255,0,0,0,1,16,0,0,0,16,0,0,0,3,0,0,0,60,0,0,0,44,255,255,255,45,0,0,0,102,117,110,99,116,105,111,110,97,108,95,49,47,100,101,110,115,101,95,49,95,50,47,66,105,97,115,65,100,100,47,82,101,97,100,86,97,114,105,97,98,108,101,79,112,0,0,0,1,0,0,0,8,0,0,0,0,0,22,0,24,0,20,0,0,0,16,0,12,0,8,0,0,0,0,0,0,0,7,0,22,0,0,0,0,0,0,1,16,0,0,0,16,0,0,0,2,0,0,0,28,0,0,0,156,255,255,255,14,0,0,0,97,114,105,116,104,46,99,111,110,115,116,97,110,116,0,0,2,0,0,0,8,0,0,0,4,0,0,0,0,0,22,0,28,0,24,0,0,0,20,0,16,0,12,0,0,0,0,0,8,0,7,0,22,0,0,0,0,0,0,1,20,0,0,0,32,0,0,0,32,0,0,0,1,0,0,0,60,0,0,0,2,0,0,0,255,255,255,255,8,0,0,0,4,0,4,0,4,0,0,0,29,0,0,0,115,101,114,118,105,110,103,95,100,101,102,97,117,108,116,95,105,110,112,117,116,95,108,97,121,101,114,58,48,0,0,0,2,0,0,0,1,0,0,0,8,0,0,0,1,0,0,0,16,0,0,0,12,0,12,0,11,0,0,0,0,0,4,0,12,0,0,0,9,0,0,0,0,0,0,9};
unsigned int motor_autoencoder_tflite_len = 1808;
